unsigned char ANN_WeatherModel_Two_Params_tflite[] = {
  0x1c, 0x00, 0x00, 0x00, 0x54, 0x46, 0x4c, 0x33, 0x00, 0x00, 0x12, 0x00,
  0x1c, 0x00, 0x04, 0x00, 0x08, 0x00, 0x0c, 0x00, 0x10, 0x00, 0x14, 0x00,
  0x00, 0x00, 0x18, 0x00, 0x12, 0x00, 0x00, 0x00, 0x03, 0x00, 0x00, 0x00,
  0x94, 0x14, 0x00, 0x00, 0x9c, 0x0e, 0x00, 0x00, 0x84, 0x0e, 0x00, 0x00,
  0x34, 0x00, 0x00, 0x00, 0x04, 0x00, 0x00, 0x00, 0x01, 0x00, 0x00, 0x00,
  0x04, 0x00, 0x00, 0x00, 0x14, 0xec, 0xff, 0xff, 0x08, 0x00, 0x00, 0x00,
  0x0e, 0x00, 0x00, 0x00, 0x13, 0x00, 0x00, 0x00, 0x6d, 0x69, 0x6e, 0x5f,
  0x72, 0x75, 0x6e, 0x74, 0x69, 0x6d, 0x65, 0x5f, 0x76, 0x65, 0x72, 0x73,
  0x69, 0x6f, 0x6e, 0x00, 0x0f, 0x00, 0x00, 0x00, 0x44, 0x0e, 0x00, 0x00,
  0x24, 0x0e, 0x00, 0x00, 0x14, 0x0d, 0x00, 0x00, 0x04, 0x0b, 0x00, 0x00,
  0xf4, 0x02, 0x00, 0x00, 0xe4, 0x00, 0x00, 0x00, 0xdc, 0x00, 0x00, 0x00,
  0xd4, 0x00, 0x00, 0x00, 0x44, 0x00, 0x00, 0x00, 0x3c, 0x00, 0x00, 0x00,
  0x34, 0x00, 0x00, 0x00, 0x2c, 0x00, 0x00, 0x00, 0x24, 0x00, 0x00, 0x00,
  0x1c, 0x00, 0x00, 0x00, 0x04, 0x00, 0x00, 0x00, 0x72, 0xf1, 0xff, 0xff,
  0x04, 0x00, 0x00, 0x00, 0x06, 0x00, 0x00, 0x00, 0x31, 0x2e, 0x31, 0x34,
  0x2e, 0x30, 0x00, 0x00, 0x24, 0xec, 0xff, 0xff, 0x28, 0xec, 0xff, 0xff,
  0x2c, 0xec, 0xff, 0xff, 0x30, 0xec, 0xff, 0xff, 0x34, 0xec, 0xff, 0xff,
  0x9a, 0xf1, 0xff, 0xff, 0x04, 0x00, 0x00, 0x00, 0x80, 0x00, 0x00, 0x00,
  0xb1, 0xe8, 0x93, 0xbd, 0x12, 0xce, 0xe5, 0x3d, 0x3b, 0x39, 0xd5, 0x3d,
  0x0d, 0xcf, 0x29, 0xbd, 0xd2, 0x3a, 0x42, 0x3e, 0xab, 0xe4, 0xb4, 0xbc,
  0x51, 0x76, 0x04, 0xbe, 0xfd, 0xd7, 0x79, 0x3d, 0xa9, 0xc8, 0x8e, 0x3c,
  0xe2, 0x54, 0x41, 0x3c, 0xaa, 0x89, 0xf5, 0x3c, 0x90, 0x81, 0x81, 0xbc,
  0xb0, 0x21, 0x10, 0xbc, 0xb6, 0x59, 0xa0, 0xbe, 0x8f, 0x23, 0x90, 0x3d,
  0x1a, 0x10, 0xa9, 0xbe, 0xb1, 0xd9, 0x1e, 0x3d, 0x3c, 0x2c, 0x51, 0x3f,
  0xa2, 0x44, 0xb9, 0xbe, 0x3b, 0x49, 0xf0, 0x3b, 0x0b, 0xf1, 0x5a, 0xbc,
  0x60, 0x0c, 0xd4, 0xbc, 0x80, 0x59, 0xb3, 0x3c, 0x07, 0x3a, 0x09, 0x3e,
  0x5b, 0x60, 0x87, 0x3d, 0xea, 0xe0, 0xcd, 0xbe, 0xd7, 0x67, 0x27, 0xbe,
  0x5d, 0xa1, 0x5a, 0xbe, 0xd1, 0x76, 0xfa, 0x3c, 0x9d, 0x90, 0xd8, 0x3b,
  0x47, 0xba, 0x15, 0x3e, 0xe2, 0x74, 0x6b, 0xbd, 0xc4, 0xec, 0xff, 0xff,
  0xc8, 0xec, 0xff, 0xff, 0x2e, 0xf2, 0xff, 0xff, 0x04, 0x00, 0x00, 0x00,
  0x00, 0x02, 0x00, 0x00, 0x4f, 0x76, 0x08, 0x3f, 0xb4, 0x27, 0x3c, 0xbe,
  0x42, 0x22, 0x0c, 0xbf, 0x02, 0x3e, 0x88, 0x3e, 0x82, 0x7d, 0x91, 0xbe,
  0x12, 0xae, 0x8b, 0x3e, 0xd2, 0x8b, 0xdb, 0x3e, 0xbf, 0xdd, 0xc1, 0xbe,
  0xba, 0x63, 0xe6, 0xbe, 0x77, 0x6d, 0xb9, 0x3e, 0x4a, 0x0e, 0x96, 0x3e,
  0x05, 0x06, 0x8e, 0xbe, 0xfa, 0xa9, 0xba, 0x3c, 0xa3, 0x25, 0x89, 0x3e,
  0xa0, 0x28, 0xc9, 0x3e, 0x78, 0xc6, 0x07, 0xbc, 0x2b, 0xa6, 0xdf, 0xbd,
  0xe5, 0x95, 0x88, 0x3e, 0x61, 0x54, 0xfc, 0xbe, 0x2e, 0x90, 0x2b, 0x3e,
  0xc9, 0x11, 0x6f, 0x3e, 0x0f, 0x8d, 0xa9, 0xbe, 0x8e, 0xc9, 0x04, 0x3e,
  0xb8, 0x6b, 0x52, 0x3e, 0xd7, 0xf3, 0x06, 0xbe, 0xb2, 0x04, 0x6c, 0x3e,
  0x98, 0x38, 0xa1, 0xbb, 0xec, 0xcd, 0x32, 0xbe, 0xa2, 0xce, 0x99, 0xbe,
  0x01, 0x68, 0xa3, 0x3e, 0xd9, 0x07, 0x1c, 0x3f, 0xd6, 0xa3, 0x69, 0xbe,
  0xf8, 0xcd, 0xda, 0xbe, 0x2c, 0xeb, 0xb5, 0x3d, 0xcc, 0x45, 0x0b, 0x3f,
  0x08, 0x34, 0x45, 0xbe, 0x75, 0x42, 0x8e, 0xbc, 0x22, 0xd2, 0x3b, 0x3e,
  0x64, 0x73, 0x70, 0x3e, 0xe1, 0x26, 0x5f, 0xbe, 0xf6, 0x3d, 0x7d, 0xbe,
  0x9d, 0x9c, 0x93, 0x3e, 0x8e, 0xa8, 0xac, 0xbd, 0xf8, 0xcc, 0x40, 0x3e,
  0x12, 0xc2, 0xa2, 0x3d, 0x9a, 0x71, 0x7f, 0xbe, 0x92, 0x29, 0xe4, 0xbc,
  0xc1, 0x51, 0x63, 0x3e, 0xbc, 0xd1, 0xfe, 0x3d, 0xfd, 0xdd, 0x87, 0xbe,
  0xef, 0x9e, 0x57, 0xbd, 0x0d, 0x91, 0x86, 0x3e, 0x13, 0x90, 0xc1, 0xbd,
  0x25, 0x99, 0x7c, 0x3e, 0xcb, 0xe3, 0xfe, 0x3d, 0x8d, 0x2e, 0x9d, 0xbe,
  0xa8, 0xed, 0x9d, 0xbd, 0xa4, 0x55, 0x21, 0xbe, 0x45, 0xd2, 0x67, 0xbe,
  0x0e, 0x94, 0x92, 0x3e, 0xc3, 0x53, 0x8d, 0xbd, 0xb5, 0x87, 0x53, 0x3e,
  0xc8, 0xda, 0xff, 0x3e, 0x3b, 0x28, 0xa4, 0xbe, 0x31, 0x23, 0x51, 0xbe,
  0xcb, 0x16, 0x9a, 0x3e, 0x29, 0x07, 0xda, 0x3d, 0xae, 0x4b, 0x7a, 0xbe,
  0x6e, 0x6a, 0x2e, 0x3d, 0xa2, 0x57, 0x65, 0xbe, 0xf4, 0xbb, 0xe2, 0x3d,
  0x73, 0x8f, 0x41, 0xbe, 0x33, 0x08, 0x68, 0x3d, 0x26, 0xef, 0x92, 0xbe,
  0xcc, 0xbf, 0x04, 0xbf, 0xc2, 0x1b, 0x9a, 0xbd, 0xab, 0x8b, 0xc9, 0x3e,
  0x01, 0xfe, 0xb2, 0xbe, 0xf8, 0x81, 0x13, 0xbd, 0xfe, 0x06, 0x42, 0xbe,
  0xc5, 0xf9, 0xcc, 0x3d, 0xac, 0x9f, 0x74, 0xbe, 0x6b, 0x3f, 0x0c, 0xbf,
  0x45, 0xfa, 0x86, 0x3d, 0x33, 0xee, 0x19, 0xbe, 0x4c, 0xed, 0x61, 0x3e,
  0x7f, 0x8f, 0x4b, 0x3e, 0x05, 0x65, 0x4b, 0x3e, 0xaf, 0xc6, 0xe3, 0xbe,
  0xbc, 0x9b, 0xc9, 0x3e, 0x0e, 0xc4, 0x4c, 0xbe, 0x08, 0xd8, 0x8f, 0x3e,
  0x5e, 0xe3, 0xa2, 0x3d, 0x6d, 0x93, 0x57, 0x3e, 0x3c, 0x8c, 0x0f, 0xbe,
  0x14, 0x38, 0xa0, 0x3e, 0x8a, 0x6b, 0x22, 0x3e, 0x65, 0x58, 0x08, 0x3e,
  0x5f, 0x13, 0x4e, 0xbe, 0xf2, 0xf8, 0x54, 0x3e, 0x03, 0x0d, 0x14, 0xbe,
  0x93, 0xa0, 0x82, 0x3e, 0x83, 0x6f, 0xd3, 0xbb, 0x42, 0x13, 0x2c, 0xbe,
  0x62, 0x0b, 0xf8, 0x3e, 0x0b, 0x63, 0x71, 0xbe, 0x6b, 0x93, 0xb9, 0x3e,
  0x3e, 0xaf, 0xaa, 0xbe, 0x78, 0x15, 0xa1, 0xbe, 0xed, 0x18, 0xaf, 0x3e,
  0x4b, 0xa8, 0x64, 0x3e, 0x7f, 0x8f, 0x8d, 0xbe, 0x7a, 0x54, 0xdf, 0xbe,
  0x23, 0x5e, 0xb1, 0xbd, 0xfb, 0xbe, 0xc1, 0x3e, 0x9f, 0xc8, 0xa8, 0xbe,
  0x8c, 0x62, 0xe7, 0x3e, 0xcf, 0x5c, 0x0d, 0xbe, 0x55, 0x2a, 0xb3, 0x3e,
  0xd6, 0x92, 0x71, 0xbe, 0x44, 0x94, 0xb3, 0x3d, 0x49, 0xa9, 0x4c, 0xbe,
  0x03, 0xde, 0xdf, 0xbe, 0x19, 0x70, 0x95, 0x3e, 0x4f, 0x11, 0x16, 0x3d,
  0x51, 0x76, 0x52, 0xbe, 0x07, 0x08, 0xbf, 0x3d, 0xe9, 0xad, 0x89, 0xbe,
  0x3a, 0xf4, 0xff, 0xff, 0x04, 0x00, 0x00, 0x00, 0x00, 0x08, 0x00, 0x00,
  0xed, 0xfb, 0x03, 0xf8, 0x0c, 0xf8, 0xfc, 0xeb, 0x09, 0x0c, 0x00, 0xe2,
  0xff, 0x0d, 0x09, 0xf9, 0x0f, 0xfd, 0xf8, 0xfa, 0x04, 0x07, 0x0c, 0xfd,
  0x09, 0xfa, 0x05, 0xf7, 0x19, 0x06, 0xfd, 0xfd, 0x01, 0xfd, 0x0c, 0xfc,
  0x11, 0x1d, 0xf6, 0x11, 0x03, 0x18, 0x06, 0xec, 0xfd, 0x09, 0xf7, 0x05,
  0xea, 0xf6, 0xfe, 0x19, 0xf5, 0x02, 0x05, 0x00, 0x1a, 0x02, 0xf9, 0x07,
  0x0e, 0x04, 0x0d, 0x0e, 0x02, 0x02, 0x05, 0x08, 0x07, 0xf5, 0x17, 0x10,
  0x06, 0xf6, 0xf4, 0x09, 0x03, 0xf0, 0x02, 0x00, 0xf2, 0xfb, 0x19, 0xff,
  0x0f, 0x00, 0xfa, 0x16, 0xff, 0x0c, 0x09, 0xf5, 0xee, 0x05, 0x18, 0xf9,
  0x09, 0xed, 0xf9, 0xf9, 0xf3, 0xf8, 0xfc, 0xf0, 0xeb, 0xf7, 0x0d, 0x0e,
  0x0b, 0x03, 0x17, 0x09, 0x09, 0x0b, 0x03, 0xe9, 0x09, 0x04, 0x08, 0xfc,
  0xf5, 0xfd, 0x0b, 0xfc, 0xff, 0xf7, 0xf3, 0xf0, 0x00, 0x00, 0x09, 0xf6,
  0x03, 0xff, 0x12, 0x0e, 0x01, 0xfb, 0xf2, 0x12, 0x0f, 0xde, 0x04, 0x02,
  0xf3, 0xfa, 0x14, 0xfd, 0x04, 0x01, 0xfb, 0x1a, 0xf3, 0x0f, 0x07, 0xfd,
  0xee, 0x0a, 0x07, 0xff, 0xfd, 0xf8, 0xfa, 0xf0, 0xe7, 0xf6, 0xf5, 0xdd,
  0xec, 0xf8, 0x14, 0x18, 0x05, 0x08, 0x22, 0xfd, 0x1f, 0x02, 0xff, 0xe3,
  0xfb, 0xf0, 0x06, 0xf9, 0xf5, 0xfc, 0x08, 0x02, 0xf7, 0x04, 0xee, 0xf3,
  0x0a, 0x05, 0x04, 0xfe, 0x03, 0xfd, 0x05, 0x06, 0x02, 0xfe, 0xfb, 0xfd,
  0xf7, 0xff, 0x06, 0x05, 0x00, 0x02, 0xff, 0x07, 0x09, 0xf2, 0x01, 0x0c,
  0x08, 0xf8, 0xf8, 0x00, 0xfc, 0x02, 0xfb, 0xf8, 0xfe, 0xf8, 0x07, 0x0b,
  0x03, 0xfb, 0x01, 0xf9, 0xfe, 0xf8, 0xfe, 0x0b, 0xff, 0xff, 0xfc, 0x02,
  0xff, 0xf9, 0xf6, 0xf9, 0xfa, 0xff, 0x04, 0x00, 0xfb, 0x02, 0x09, 0xfc,
  0x03, 0x08, 0x00, 0xf8, 0x1d, 0xf1, 0xd4, 0x28, 0xf5, 0x2e, 0xce, 0x0a,
  0xc3, 0xf5, 0x40, 0xe2, 0xc8, 0x17, 0xcd, 0x10, 0xf2, 0x1b, 0xcf, 0x2e,
  0xdb, 0xb8, 0x4c, 0xbf, 0x49, 0xb6, 0xbd, 0x4f, 0x1b, 0xce, 0xc2, 0x19,
  0xcd, 0x37, 0x40, 0x36, 0x36, 0xec, 0x2e, 0x1e, 0x27, 0xfc, 0xcf, 0xe8,
  0xe9, 0xc2, 0xd3, 0xb6, 0xf2, 0xde, 0xbe, 0x28, 0x13, 0x33, 0xc7, 0x32,
  0xf8, 0x39, 0x08, 0x25, 0x3d, 0xdc, 0x3c, 0x40, 0xff, 0xff, 0x0b, 0xf8,
  0x09, 0x01, 0x1d, 0x08, 0x1d, 0xfd, 0xf7, 0x10, 0x11, 0x00, 0x07, 0xf9,
  0xfc, 0xff, 0x18, 0x00, 0x02, 0x0e, 0xe3, 0x0a, 0xf4, 0x29, 0x1a, 0xde,
  0xe8, 0x02, 0x1a, 0x08, 0xff, 0xd9, 0xd5, 0xf2, 0xdc, 0xff, 0xf7, 0xe8,
  0xfb, 0xff, 0x03, 0x0d, 0x05, 0x14, 0x0f, 0x0e, 0x06, 0x06, 0x15, 0xef,
  0x06, 0xf8, 0x06, 0xfb, 0xf6, 0x02, 0xfe, 0xfe, 0xe6, 0x05, 0xd8, 0xdd,
  0xd9, 0x1d, 0x17, 0xf4, 0x10, 0xed, 0xe0, 0xd4, 0x06, 0x1d, 0xf5, 0xcc,
  0x06, 0x1f, 0x18, 0xdd, 0x22, 0xdd, 0xea, 0xf2, 0x10, 0x0c, 0x05, 0xe0,
  0x00, 0xf0, 0xf4, 0x0a, 0x3c, 0x0e, 0xf7, 0xee, 0x07, 0x07, 0x14, 0xf6,
  0x05, 0x45, 0xef, 0x1e, 0x02, 0x23, 0x0c, 0xc4, 0x08, 0x0e, 0xce, 0x00,
  0xc6, 0x0c, 0x12, 0x22, 0xe6, 0xf1, 0x19, 0xf3, 0x4b, 0xe7, 0xe7, 0xe4,
  0x03, 0x1b, 0x0e, 0xfc, 0xf8, 0xff, 0x02, 0x00, 0x03, 0x06, 0x02, 0x01,
  0x0d, 0x08, 0xff, 0x06, 0xfb, 0xf5, 0xfa, 0x01, 0xfc, 0x05, 0x0c, 0xf5,
  0xfd, 0xfe, 0xf9, 0xfe, 0xf8, 0x07, 0x08, 0xfa, 0x00, 0xf9, 0x07, 0x02,
  0x01, 0x05, 0xf3, 0xfd, 0x00, 0xff, 0x05, 0xff, 0xf9, 0x02, 0x08, 0x07,
  0x03, 0xfb, 0x0d, 0x03, 0xf9, 0xff, 0x06, 0xf3, 0xff, 0x07, 0x04, 0xfb,
  0x00, 0xfd, 0xfb, 0xfa, 0x03, 0xf6, 0xf1, 0xef, 0x04, 0x03, 0xff, 0x05,
  0xfe, 0xf8, 0x1a, 0xfd, 0x1a, 0xfd, 0xf9, 0x12, 0x10, 0xf2, 0x0d, 0xf8,
  0x06, 0x00, 0x19, 0xf5, 0x03, 0x16, 0xe7, 0x1c, 0xe7, 0x1b, 0x1b, 0xe9,
  0xfa, 0x0d, 0x18, 0x07, 0x0c, 0xe0, 0xe6, 0xfd, 0xe1, 0xf6, 0x06, 0xe9,
  0xfa, 0xf6, 0x12, 0x01, 0xfc, 0x0d, 0x10, 0x0b, 0x04, 0xfe, 0x05, 0xf9,
  0xfb, 0x00, 0xfc, 0xf5, 0xf5, 0xfc, 0x05, 0xfc, 0xec, 0xfb, 0xef, 0xf1,
  0x0b, 0x04, 0x03, 0xf6, 0xfd, 0xfc, 0x1f, 0x0d, 0x15, 0xff, 0xf2, 0x08,
  0x04, 0xfa, 0xfc, 0x05, 0x02, 0x0b, 0x1c, 0xf8, 0x0f, 0x13, 0xe1, 0x10,
  0xf1, 0x25, 0x1e, 0xe5, 0xf2, 0x09, 0x1d, 0xfb, 0x08, 0xdf, 0xe1, 0xf7,
  0xd7, 0xf1, 0x08, 0xed, 0xef, 0xff, 0x0a, 0x0f, 0xfa, 0xff, 0x05, 0x15,
  0x05, 0x06, 0x08, 0xe9, 0x0a, 0xf3, 0x0b, 0xf2, 0xf7, 0xfd, 0x07, 0xfe,
  0xea, 0x01, 0xd2, 0xf3, 0x01, 0x02, 0x00, 0x00, 0x00, 0xf8, 0x14, 0x0b,
  0x05, 0x04, 0xf9, 0x0b, 0xff, 0xfe, 0x00, 0x07, 0xf7, 0x0a, 0x12, 0x05,
  0xfc, 0x12, 0xe8, 0x0a, 0xee, 0x0d, 0x15, 0xe7, 0xf0, 0x02, 0x1b, 0xfe,
  0x0d, 0xf4, 0xe2, 0xee, 0xe1, 0xf8, 0xf9, 0xfd, 0xff, 0x03, 0x07, 0x03,
  0x04, 0x05, 0xff, 0x12, 0x0e, 0x05, 0xfe, 0xeb, 0x0b, 0xf3, 0x0c, 0xfc,
  0xfc, 0xf7, 0x01, 0xfc, 0xf5, 0x02, 0xe1, 0xee, 0x0c, 0x04, 0xfe, 0x06,
  0x06, 0x00, 0xf4, 0x01, 0xfa, 0xf6, 0x0a, 0xf9, 0xf3, 0x00, 0xf2, 0xfd,
  0x01, 0x04, 0x00, 0x06, 0xfa, 0xf2, 0x05, 0xf6, 0x0a, 0x04, 0xfb, 0xfb,
  0xee, 0xfa, 0x00, 0x05, 0xf8, 0x09, 0xfc, 0x00, 0x04, 0xf8, 0xff, 0x01,
  0x08, 0xf6, 0x01, 0x07, 0x07, 0xfc, 0xfe, 0xf8, 0x0c, 0xf9, 0xfa, 0x06,
  0x03, 0xff, 0x00, 0xff, 0xff, 0xf9, 0xfa, 0xf8, 0x0b, 0xfb, 0x0b, 0x04,
  0x03, 0xfd, 0x02, 0x01, 0xfe, 0xf4, 0x0d, 0x04, 0x0f, 0xfb, 0xf4, 0x01,
  0x11, 0xf0, 0x05, 0x04, 0xf5, 0xf9, 0x0a, 0xf3, 0x0b, 0x18, 0xf0, 0x0f,
  0xe9, 0x24, 0x10, 0xf0, 0xee, 0x02, 0x0f, 0xfc, 0x0a, 0xf1, 0xdc, 0xf5,
  0xe0, 0x01, 0x01, 0xe8, 0xfb, 0x04, 0x07, 0x10, 0x02, 0x14, 0x08, 0x14,
  0x05, 0x08, 0x09, 0xe9, 0xf9, 0x02, 0x05, 0xf5, 0xf3, 0xf3, 0x06, 0x02,
  0xe4, 0x0b, 0xdb, 0xf0, 0x13, 0xdf, 0xf5, 0x10, 0xe6, 0x0f, 0xff, 0x0f,
  0x0b, 0xeb, 0x00, 0x14, 0xf4, 0xfb, 0xfd, 0x29, 0xd7, 0x25, 0xf7, 0x01,
  0x01, 0x04, 0x03, 0xfa, 0xff, 0x0a, 0x06, 0x04, 0xf2, 0xff, 0x03, 0x1a,
  0xf9, 0x08, 0xfb, 0x00, 0xf5, 0xf6, 0x0a, 0xfb, 0x0d, 0xe6, 0xf7, 0x13,
  0xf2, 0xf6, 0x15, 0xf3, 0x13, 0xfc, 0x01, 0x04, 0x17, 0x0e, 0xf2, 0x0b,
  0xf4, 0x0a, 0x27, 0x11, 0xfd, 0xf9, 0x00, 0x00, 0xf5, 0x16, 0x02, 0xf7,
  0x0b, 0xf9, 0xf8, 0xf6, 0x07, 0x0a, 0x00, 0xf7, 0x06, 0x02, 0x0c, 0xe8,
  0x0c, 0xe5, 0xff, 0xf3, 0xfe, 0x07, 0xfb, 0xfd, 0x06, 0x01, 0x02, 0xf6,
  0x18, 0x05, 0xff, 0xf2, 0xfe, 0xf5, 0x01, 0xfd, 0xf9, 0x16, 0xf6, 0x02,
  0xfb, 0x1c, 0x06, 0xe5, 0x14, 0x06, 0xf4, 0x02, 0xef, 0x13, 0x00, 0x09,
  0xf8, 0xf4, 0x07, 0xfc, 0x18, 0xfb, 0xe7, 0xee, 0xf9, 0x0b, 0x08, 0x05,
  0x17, 0xe4, 0xff, 0x12, 0xee, 0x02, 0x03, 0x11, 0x07, 0xdb, 0x01, 0x05,
  0xee, 0x00, 0xfc, 0x2d, 0xd5, 0x1a, 0x07, 0x09, 0xf2, 0xf3, 0xfd, 0xfb,
  0x09, 0xf9, 0x03, 0x02, 0xe9, 0xf1, 0xf9, 0x11, 0xf4, 0xfc, 0x07, 0x09,
  0xfc, 0xef, 0x0b, 0xfc, 0xfd, 0xe3, 0x01, 0x09, 0xe4, 0xf8, 0x0c, 0xfb,
  0x0b, 0xf4, 0x02, 0xfa, 0x28, 0x10, 0xfc, 0x08, 0xec, 0x13, 0x1c, 0x16,
  0x06, 0xef, 0xf7, 0x00, 0x09, 0x03, 0xfe, 0xff, 0xfe, 0xfb, 0x1a, 0xfc,
  0x0f, 0xfb, 0xf5, 0x04, 0x0a, 0xf8, 0x0e, 0x08, 0x01, 0x03, 0x0b, 0xf4,
  0x03, 0x0e, 0xe3, 0x17, 0x01, 0x19, 0x10, 0xfa, 0xf6, 0x09, 0x15, 0xfb,
  0x0b, 0xef, 0xea, 0x04, 0xeb, 0xfa, 0x07, 0xfc, 0xf9, 0xfa, 0x0b, 0x0c,
  0xfc, 0x02, 0x07, 0x0a, 0xff, 0x03, 0x0f, 0x00, 0x08, 0x04, 0x08, 0xf9,
  0x04, 0x00, 0xfc, 0x09, 0xf6, 0x03, 0xe3, 0xf7, 0x43, 0xc3, 0x99, 0x6c,
  0xb8, 0x5f, 0x9e, 0x24, 0x90, 0xd6, 0x6d, 0xc1, 0xaa, 0x45, 0x94, 0x3e,
  0xe2, 0x34, 0x96, 0x6a, 0xa5, 0x82, 0x70, 0x9b, 0x7c, 0x87, 0x88, 0x7f,
  0x47, 0x96, 0x90, 0x4c, 0x8a, 0x69, 0x70, 0x78, 0x67, 0xd8, 0x65, 0x44,
  0x48, 0xe3, 0xa6, 0xc9, 0xc5, 0x8e, 0xaf, 0x9b, 0xd4, 0x9c, 0xa0, 0x65,
  0x47, 0x61, 0xac, 0x51, 0xea, 0x64, 0x28, 0x48, 0x72, 0xb2, 0x74, 0x63,
  0x2e, 0xc6, 0xf1, 0x0e, 0xda, 0x1a, 0xfc, 0x11, 0xef, 0xc7, 0x0a, 0x0e,
  0xee, 0x0f, 0xf8, 0x38, 0xbd, 0x30, 0x00, 0x0e, 0xe5, 0xf5, 0x0d, 0xf2,
  0x05, 0xf5, 0xee, 0x08, 0xef, 0xf5, 0xea, 0x2a, 0xe9, 0x12, 0x07, 0x16,
  0x02, 0xf2, 0x18, 0x0b, 0x14, 0xc4, 0xee, 0x0f, 0xd3, 0xf5, 0x07, 0xf5,
  0x11, 0xea, 0xf9, 0xfa, 0x3a, 0x18, 0xf5, 0x1b, 0xf4, 0x1d, 0x41, 0x1f,
  0x16, 0xe3, 0x03, 0x07, 0x06, 0xff, 0xef, 0x13, 0xf4, 0x14, 0xf8, 0x0a,
  0xeb, 0x02, 0x0b, 0xff, 0xfd, 0x00, 0xf4, 0x00, 0x02, 0x0d, 0xeb, 0x05,
  0xf3, 0xdd, 0x17, 0xf4, 0x16, 0xea, 0xe1, 0x11, 0x10, 0xef, 0xe5, 0x0b,
  0xf0, 0x0d, 0x0c, 0x18, 0x05, 0xf7, 0x0f, 0x0f, 0x08, 0xf6, 0xee, 0xfd,
  0x02, 0xf5, 0x02, 0xe7, 0xfb, 0xfc, 0xf4, 0x12, 0x00, 0x06, 0xfa, 0x03,
  0xf6, 0x0b, 0xfa, 0xff, 0x23, 0xf1, 0x14, 0x16, 0x08, 0xf8, 0x05, 0xf6,
  0x00, 0xf8, 0x03, 0x05, 0xfc, 0xfd, 0x05, 0x0c, 0xfc, 0xfa, 0x04, 0x0a,
  0xff, 0x01, 0x00, 0x07, 0xfc, 0x01, 0x07, 0x02, 0xff, 0xf6, 0xfd, 0x02,
  0xfe, 0x06, 0xfa, 0x05, 0x02, 0xf6, 0xf5, 0x0e, 0xf8, 0xff, 0xf8, 0xfa,
  0x00, 0xff, 0x03, 0xfc, 0x05, 0xfb, 0xfe, 0x02, 0x04, 0xfb, 0x02, 0x04,
  0xff, 0xff, 0xfd, 0xfa, 0xf9, 0x01, 0x07, 0x03, 0x0c, 0xfd, 0x09, 0xff,
  0x09, 0x05, 0x0f, 0xff, 0xfb, 0x03, 0x1c, 0x05, 0x1f, 0xfa, 0xeb, 0x16,
  0x10, 0xef, 0x0e, 0x00, 0x00, 0xf7, 0x15, 0xef, 0xff, 0x1e, 0xeb, 0x09,
  0xf0, 0x16, 0x1d, 0xdd, 0xe6, 0x0e, 0x0e, 0xfe, 0x14, 0xdf, 0xe4, 0xe9,
  0xde, 0xf3, 0xf0, 0xf1, 0xf2, 0x05, 0x0c, 0x13, 0x04, 0x09, 0x12, 0x0d,
  0x04, 0x00, 0x0c, 0xdd, 0xff, 0xf4, 0x02, 0xfd, 0xf7, 0xf8, 0xfe, 0xfa,
  0xe0, 0xfa, 0xd6, 0xef, 0x01, 0x00, 0x08, 0xfc, 0x03, 0x03, 0x0b, 0xfe,
  0x09, 0xfd, 0xfa, 0x0e, 0x0e, 0xfd, 0xfd, 0x06, 0x05, 0x0b, 0x10, 0x04,
  0x06, 0x11, 0xf0, 0x1b, 0xe9, 0x1b, 0x15, 0xea, 0xf1, 0x0e, 0x0c, 0x01,
  0x0a, 0xf2, 0xdf, 0xe6, 0xee, 0xf7, 0xf8, 0xf4, 0xef, 0xf5, 0x0c, 0x0b,
  0xff, 0x0b, 0x05, 0x0e, 0x02, 0x0e, 0x02, 0xe7, 0xfa, 0xf9, 0x02, 0xfa,
  0xf3, 0xf5, 0x01, 0xfe, 0xed, 0xfc, 0xe1, 0xe9, 0x02, 0xf5, 0xff, 0xfb,
  0xfd, 0xf8, 0x1e, 0x08, 0x17, 0xf5, 0xf5, 0x18, 0x12, 0xf1, 0x01, 0x02,
  0xf1, 0xfc, 0x21, 0xf7, 0x0f, 0x0c, 0xf3, 0x15, 0xf2, 0x0d, 0x0e, 0xf5,
  0xde, 0x01, 0x1a, 0x08, 0x01, 0xe8, 0xdd, 0xe9, 0xe9, 0xfa, 0xfc, 0xec,
  0xe4, 0xf3, 0x0a, 0x0d, 0x06, 0x03, 0x1d, 0x10, 0x15, 0x04, 0x07, 0xde,
  0xfd, 0xf6, 0x0c, 0xf9, 0xe9, 0xf9, 0x06, 0xf5, 0xe8, 0x03, 0xda, 0xec,
  0x01, 0xfc, 0xfc, 0x06, 0xfd, 0xf5, 0x07, 0x00, 0x04, 0x00, 0xfc, 0x13,
  0x05, 0xfd, 0x06, 0xff, 0xf9, 0xf9, 0x0f, 0xfa, 0x00, 0x05, 0xfe, 0x0e,
  0x02, 0x05, 0x07, 0xfb, 0xf6, 0x05, 0xfa, 0xf6, 0xfe, 0xf7, 0x03, 0xfd,
  0xf6, 0xf5, 0xfa, 0xef, 0xf3, 0xf9, 0x03, 0x0c, 0xf8, 0x05, 0x05, 0xfe,
  0x06, 0xfb, 0x01, 0xf2, 0xf8, 0xfe, 0xfd, 0xfb, 0xf6, 0xfa, 0x04, 0xff,
  0xfb, 0xfe, 0xfe, 0x02, 0x19, 0xd0, 0xf2, 0x0d, 0xea, 0x0f, 0x13, 0x13,
  0x06, 0xd5, 0x08, 0x1a, 0x01, 0xe2, 0xf8, 0x32, 0xc9, 0x25, 0x14, 0x0b,
  0xf6, 0xfb, 0xec, 0x08, 0xf7, 0x12, 0x00, 0xfa, 0xda, 0xf8, 0x0d, 0x0f,
  0x07, 0xfc, 0xf3, 0xf9, 0xfe, 0xeb, 0x01, 0xee, 0xfa, 0xca, 0xfc, 0x28,
  0xf1, 0xf6, 0x1f, 0xf8, 0x20, 0xf5, 0xfa, 0xe3, 0x20, 0x04, 0xf3, 0x05,
  0xe7, 0x01, 0x2d, 0x06, 0xfd, 0xeb, 0xf7, 0xf5, 0x04, 0xf2, 0xfe, 0xfe,
  0xf6, 0x0a, 0x04, 0x00, 0x06, 0xec, 0xf8, 0x02, 0xfe, 0xf7, 0x00, 0x0a,
  0xe7, 0x0b, 0xff, 0xfd, 0xf6, 0xfd, 0x00, 0xfe, 0xff, 0xfc, 0xfb, 0x01,
  0xf4, 0xfb, 0x05, 0x0d, 0xfd, 0xf9, 0x04, 0x0d, 0xff, 0xf0, 0x00, 0xfd,
  0x03, 0xf5, 0x07, 0x02, 0xf3, 0xf6, 0x09, 0x01, 0x15, 0xf3, 0xfe, 0x00,
  0x05, 0xff, 0xf8, 0x01, 0xfb, 0xff, 0x17, 0x05, 0x01, 0xef, 0xf7, 0xfe,
  0x63, 0x9f, 0xca, 0x44, 0xa5, 0x39, 0xdd, 0x24, 0xc9, 0x88, 0x31, 0x00,
  0xd1, 0x1b, 0xcf, 0x6e, 0xa7, 0x6f, 0xe4, 0x39, 0xba, 0xd5, 0x29, 0xdd,
  0x36, 0xe3, 0xd6, 0x2e, 0xfa, 0xbe, 0xc2, 0x53, 0xd3, 0x2a, 0x1f, 0x2c,
  0x2e, 0xcc, 0x3c, 0x11, 0x2d, 0x8f, 0xbf, 0x14, 0xa6, 0xcc, 0xf5, 0xcd,
  0x0c, 0xc7, 0xd6, 0x0c, 0x5f, 0x48, 0xc8, 0x3b, 0xbd, 0x3f, 0x67, 0x4d,
  0x2d, 0xc0, 0x1d, 0x36, 0x06, 0x02, 0xf6, 0x06, 0xff, 0x02, 0xfe, 0x01,
  0xf1, 0x02, 0x07, 0x09, 0x02, 0x06, 0x01, 0x09, 0xfc, 0x00, 0xf6, 0x08,
  0xf6, 0xef, 0x01, 0xf1, 0x0b, 0xe8, 0xf4, 0x0c, 0x07, 0xf2, 0xf2, 0x07,
  0xf6, 0x08, 0x0a, 0x04, 0xfc, 0x02, 0x03, 0xfe, 0x07, 0xfe, 0xf7, 0x01,
  0xfc, 0xfa, 0xfd, 0xf2, 0xfb, 0xfa, 0xf5, 0x0f, 0x01, 0x01, 0x03, 0x0d,
  0xfa, 0x06, 0x06, 0x06, 0x11, 0xfe, 0x05, 0x0f, 0xfd, 0x05, 0x01, 0x07,
  0xfb, 0x02, 0xfb, 0x01, 0xf9, 0xf8, 0x07, 0x02, 0x09, 0xf8, 0xf8, 0x00,
  0xfc, 0x07, 0x04, 0xf8, 0x04, 0xf7, 0x07, 0xfe, 0xfb, 0xf8, 0xf3, 0x02,
  0x04, 0x08, 0x04, 0xfa, 0xfc, 0x02, 0xfd, 0xfe, 0x01, 0xf7, 0x06, 0x03,
  0x06, 0x00, 0x05, 0x0a, 0xff, 0xf9, 0x02, 0xfd, 0xfb, 0xfd, 0xf6, 0x0d,
  0x06, 0xfe, 0x03, 0xfa, 0xf6, 0xfb, 0x06, 0x06, 0x0a, 0x02, 0x0a, 0x08,
  0xf3, 0xfb, 0x03, 0xf7, 0x07, 0xfc, 0x14, 0xfd, 0x12, 0x0f, 0xf2, 0x0e,
  0x06, 0xf2, 0x01, 0xf6, 0xff, 0xfb, 0x03, 0xf4, 0x07, 0x06, 0xfa, 0x05,
  0xf3, 0x0d, 0x07, 0xf7, 0xf8, 0x01, 0x04, 0xfd, 0x03, 0xf3, 0xfe, 0xfa,
  0xf0, 0xfe, 0xfe, 0xfa, 0xfd, 0x0b, 0x0e, 0x09, 0x08, 0x03, 0x09, 0x0d,
  0xfe, 0x00, 0x04, 0x02, 0xf3, 0xf7, 0x04, 0xff, 0xfb, 0xfb, 0xf6, 0xfd,
  0xf0, 0x0a, 0x04, 0xf5, 0x03, 0xfd, 0x04, 0xfc, 0x0a, 0xed, 0x25, 0x05,
  0x20, 0x03, 0xef, 0x01, 0x0b, 0xef, 0x08, 0xfe, 0x01, 0x0a, 0x12, 0xf2,
  0x0c, 0x09, 0xde, 0x21, 0xf1, 0x20, 0x1d, 0xee, 0xec, 0x0d, 0x17, 0xfa,
  0x06, 0xeb, 0xcf, 0xef, 0xdd, 0xf2, 0xfb, 0xe7, 0xf4, 0xfb, 0x09, 0x07,
  0x09, 0x0e, 0x09, 0x11, 0x16, 0xfe, 0x13, 0xea, 0xf9, 0xf9, 0x00, 0xf1,
  0xee, 0xf8, 0x0f, 0x04, 0xe2, 0xfe, 0xce, 0xe6, 0x46, 0xfc, 0xff, 0xff,
  0x04, 0x00, 0x00, 0x00, 0x00, 0x02, 0x00, 0x00, 0x1f, 0x7b, 0x19, 0xbe,
  0x80, 0x40, 0x3b, 0xbc, 0x53, 0x32, 0x24, 0x3e, 0x16, 0x2d, 0x48, 0x3e,
  0x87, 0x6d, 0x9a, 0xbe, 0x9a, 0x8f, 0x24, 0x3e, 0x87, 0x33, 0x78, 0x3e,
  0x41, 0x4e, 0x58, 0xbe, 0xe3, 0xad, 0x66, 0xbd, 0x1f, 0x8e, 0x59, 0xbd,
  0x88, 0x96, 0x89, 0xbe, 0x6e, 0x9d, 0x43, 0xbd, 0x1c, 0xc4, 0x7c, 0xbd,
  0xd8, 0x32, 0xef, 0xbd, 0x1d, 0x4f, 0xf3, 0x3d, 0x9b, 0xf2, 0xe6, 0xbd,
  0x20, 0xc1, 0x14, 0xbe, 0xe5, 0x76, 0xdb, 0xbe, 0x3e, 0xef, 0x86, 0xbe,
  0xf1, 0x0c, 0xee, 0xbd, 0xc7, 0xa5, 0x2a, 0x3e, 0x9a, 0xc2, 0x8e, 0xbb,
  0x51, 0x95, 0x73, 0xbe, 0x30, 0xec, 0xb2, 0x3d, 0x17, 0x5f, 0x39, 0x3d,
  0x23, 0x5a, 0xa8, 0xbc, 0x15, 0x44, 0x3a, 0x3d, 0x09, 0x37, 0xc4, 0xbe,
  0x15, 0xce, 0xa2, 0xbd, 0xba, 0x3c, 0x23, 0x3d, 0x57, 0xac, 0x01, 0x3e,
  0x36, 0xbb, 0xe0, 0x3d, 0x0a, 0xf3, 0xc3, 0x3d, 0xf1, 0xd4, 0xa4, 0x3e,
  0x18, 0xad, 0xce, 0x3e, 0x90, 0x4c, 0x1d, 0xbf, 0xc2, 0xaa, 0xe5, 0xbe,
  0xfd, 0xc1, 0x41, 0x3f, 0xca, 0x58, 0x8d, 0x3e, 0x9c, 0x04, 0xb9, 0x3d,
  0x6b, 0x1d, 0x33, 0x3f, 0xe2, 0x69, 0x0e, 0x3f, 0x9a, 0x33, 0x06, 0x3f,
  0x65, 0x8f, 0x43, 0xbf, 0x71, 0xc3, 0x04, 0x3f, 0xd5, 0xf1, 0x70, 0xbe,
  0x1c, 0x9e, 0x58, 0x3e, 0x21, 0x44, 0x4d, 0xbe, 0x7a, 0x9c, 0x46, 0x3f,
  0x01, 0x6c, 0xf2, 0xbe, 0x48, 0x16, 0x9f, 0xbe, 0x38, 0xfc, 0xfb, 0xbe,
  0x7c, 0xc7, 0xb5, 0xbe, 0xbe, 0x19, 0x0e, 0x3f, 0x8c, 0xf7, 0x14, 0x3f,
  0x83, 0xdc, 0x18, 0x3f, 0xbb, 0x11, 0x1c, 0x3e, 0xba, 0x2c, 0xf4, 0xbd,
  0xa8, 0xa9, 0x0a, 0xbe, 0x88, 0xee, 0xca, 0xbe, 0x7b, 0xf4, 0x33, 0xbf,
  0x84, 0x4d, 0x2f, 0xbf, 0xbc, 0x35, 0xaf, 0x3e, 0xb1, 0xa2, 0x17, 0x3f,
  0x4f, 0x26, 0x41, 0xbe, 0xfc, 0x61, 0x38, 0x3e, 0x22, 0x58, 0xa0, 0x3e,
  0x44, 0xcd, 0x5c, 0xbc, 0x15, 0x66, 0x9b, 0xbe, 0xd0, 0xce, 0x37, 0x3e,
  0xb0, 0x4c, 0x1c, 0x3e, 0x29, 0x42, 0x27, 0x3e, 0x31, 0x2f, 0x23, 0x3d,
  0x7b, 0x75, 0xda, 0x3c, 0x0c, 0x31, 0x61, 0xbe, 0x45, 0x47, 0x12, 0xbe,
  0xe9, 0x0a, 0x0b, 0xbd, 0x24, 0x65, 0x89, 0xbe, 0x0e, 0xf5, 0xf1, 0x3d,
  0xb3, 0xb6, 0x65, 0xbe, 0x33, 0x28, 0x9b, 0xbd, 0xb9, 0x40, 0xdb, 0xbe,
  0x05, 0xff, 0xa8, 0xbe, 0x07, 0x1b, 0x09, 0xbe, 0x03, 0x7a, 0x76, 0xbd,
  0x26, 0x1e, 0x35, 0x3d, 0xf6, 0xa2, 0x2d, 0xbe, 0x5d, 0x50, 0x4d, 0x3e,
  0x53, 0x8d, 0xa5, 0x3e, 0x34, 0xd9, 0x3b, 0xbe, 0x6b, 0xa2, 0x64, 0xbe,
  0x9d, 0x9e, 0xcc, 0xbe, 0x50, 0x8a, 0x16, 0xbe, 0x08, 0x80, 0xa1, 0xbd,
  0xc7, 0x9e, 0x86, 0x3e, 0x67, 0xd1, 0x0f, 0x3e, 0x94, 0x2c, 0x18, 0x3c,
  0xdb, 0x31, 0x86, 0x3d, 0x63, 0x13, 0x46, 0x3e, 0x6f, 0xb8, 0x16, 0x3e,
  0x4f, 0x87, 0x98, 0xbe, 0xaf, 0xe9, 0x25, 0x3e, 0x32, 0x3f, 0xbe, 0x3e,
  0x1b, 0xd1, 0x30, 0xbe, 0x5c, 0xf7, 0x1c, 0xbd, 0x94, 0xfe, 0xd1, 0xbb,
  0x9e, 0xbf, 0x86, 0xbe, 0x19, 0x6d, 0x9a, 0xbd, 0xf1, 0x0c, 0x79, 0xbd,
  0xf2, 0xc0, 0xda, 0xbd, 0x92, 0x6b, 0x70, 0x3e, 0xd1, 0x4d, 0xd3, 0xbd,
  0x5a, 0x8c, 0xfc, 0xbd, 0xa4, 0x9a, 0xda, 0xbe, 0xeb, 0xfb, 0x85, 0xbe,
  0x71, 0xd5, 0xda, 0xbd, 0x36, 0x1d, 0x00, 0x3e, 0xe0, 0x80, 0xb1, 0x3c,
  0xb4, 0x3c, 0x6f, 0xbe, 0x02, 0x8f, 0xe9, 0x3d, 0x9c, 0x88, 0x80, 0x3d,
  0x03, 0x0f, 0x37, 0x3b, 0x63, 0xbb, 0xed, 0x3a, 0x91, 0xcb, 0xc6, 0xbe,
  0x04, 0x15, 0xd6, 0xbd, 0xd5, 0xbe, 0xaa, 0xbb, 0xb7, 0x1b, 0x6b, 0x3e,
  0x3f, 0x07, 0x12, 0x3e, 0x52, 0xfe, 0xff, 0xff, 0x04, 0x00, 0x00, 0x00,
  0x00, 0x01, 0x00, 0x00, 0x56, 0xb2, 0x86, 0xbd, 0x43, 0x1a, 0xd4, 0x3d,
  0xcc, 0x78, 0x14, 0xbe, 0xd4, 0xc5, 0x2c, 0x3e, 0x9f, 0x35, 0xac, 0xbd,
  0x19, 0xa9, 0x17, 0x3e, 0xf2, 0xfb, 0x80, 0xbe, 0xfd, 0x07, 0xe3, 0xbd,
  0x3c, 0xae, 0x59, 0xbe, 0xcd, 0xdf, 0xf4, 0x3d, 0x18, 0x49, 0x58, 0x3e,
  0x1f, 0x0a, 0x66, 0xbe, 0xcf, 0x7f, 0x23, 0xbe, 0xce, 0xbb, 0x29, 0x3e,
  0x51, 0xdb, 0x3b, 0xbe, 0xae, 0xd5, 0x01, 0xbe, 0xd9, 0x50, 0x49, 0x3e,
  0x09, 0x70, 0xb7, 0xbd, 0xe5, 0x0b, 0x1d, 0xbe, 0xc8, 0xe2, 0xe8, 0x3d,
  0x00, 0x95, 0x31, 0xbe, 0x7f, 0x75, 0x08, 0xbe, 0xd3, 0x6a, 0x4d, 0x3e,
  0x72, 0x01, 0x47, 0xbe, 0xdd, 0x80, 0x3a, 0x3e, 0x10, 0x44, 0x53, 0xbe,
  0x32, 0x09, 0x4a, 0xbe, 0xb2, 0x43, 0x6f, 0x3e, 0x44, 0xcb, 0x2d, 0x3e,
  0xba, 0x74, 0x23, 0xbe, 0x17, 0xcf, 0x22, 0xbe, 0x07, 0x43, 0x05, 0x3d,
  0x49, 0x07, 0x4d, 0xbe, 0x7e, 0xe9, 0x41, 0x3e, 0xb2, 0xb6, 0x3d, 0x3e,
  0xad, 0xc6, 0xfc, 0x3d, 0xfd, 0x19, 0x7c, 0x3e, 0x9c, 0xf9, 0x81, 0x3e,
  0x50, 0xac, 0x2b, 0x3e, 0x7d, 0x80, 0x2f, 0x3e, 0x15, 0xc3, 0x31, 0x3e,
  0xfb, 0xed, 0x66, 0x3e, 0x53, 0x28, 0x16, 0xbe, 0x17, 0x95, 0x89, 0xbe,
  0xd0, 0xf5, 0x8c, 0xbd, 0x28, 0x42, 0x33, 0xbe, 0xdc, 0x3f, 0x60, 0xbe,
  0xb4, 0xe8, 0x67, 0xbe, 0xfd, 0x82, 0x35, 0xbe, 0xa9, 0x55, 0xd1, 0xbd,
  0x32, 0x7b, 0x2e, 0xbe, 0xf5, 0xe0, 0x21, 0x3e, 0xa6, 0x07, 0x57, 0xbd,
  0x8c, 0x11, 0x18, 0x3e, 0x67, 0x89, 0x3a, 0xbe, 0x11, 0x44, 0x27, 0x3e,
  0x11, 0x1f, 0x64, 0x3e, 0xf6, 0xa4, 0x1a, 0x3e, 0x23, 0x72, 0x18, 0xbe,
  0xbb, 0xf9, 0x95, 0x3d, 0x8d, 0x1a, 0x18, 0x3e, 0x40, 0xc8, 0x45, 0xbd,
  0x94, 0xde, 0x3e, 0x3e, 0x7e, 0x11, 0x4e, 0x3e, 0x5e, 0xff, 0xff, 0xff,
  0x04, 0x00, 0x00, 0x00, 0x10, 0x00, 0x00, 0x00, 0x77, 0x95, 0xaf, 0xbe,
  0xd7, 0xd9, 0x21, 0xbd, 0x01, 0xba, 0x0d, 0x3e, 0xf2, 0x85, 0x77, 0xbd,
  0x18, 0xfa, 0xff, 0xff, 0x0f, 0x00, 0x00, 0x00, 0x54, 0x4f, 0x43, 0x4f,
  0x20, 0x43, 0x6f, 0x6e, 0x76, 0x65, 0x72, 0x74, 0x65, 0x64, 0x2e, 0x00,
  0x01, 0x00, 0x00, 0x00, 0x10, 0x00, 0x00, 0x00, 0x0c, 0x00, 0x14, 0x00,
  0x04, 0x00, 0x08, 0x00, 0x0c, 0x00, 0x10, 0x00, 0x0c, 0x00, 0x00, 0x00,
  0x70, 0x01, 0x00, 0x00, 0x64, 0x01, 0x00, 0x00, 0x58, 0x01, 0x00, 0x00,
  0x04, 0x00, 0x00, 0x00, 0x06, 0x00, 0x00, 0x00, 0x1c, 0x01, 0x00, 0x00,
  0xe8, 0x00, 0x00, 0x00, 0xa8, 0x00, 0x00, 0x00, 0x84, 0x00, 0x00, 0x00,
  0x50, 0x00, 0x00, 0x00, 0x14, 0x00, 0x00, 0x00, 0x00, 0x00, 0x0e, 0x00,
  0x1a, 0x00, 0x08, 0x00, 0x0c, 0x00, 0x10, 0x00, 0x07, 0x00, 0x14, 0x00,
  0x0e, 0x00, 0x00, 0x00, 0x00, 0x00, 0x00, 0x09, 0x01, 0x00, 0x00, 0x00,
  0x24, 0x00, 0x00, 0x00, 0x18, 0x00, 0x00, 0x00, 0x0c, 0x00, 0x00, 0x00,
  0x00, 0x00, 0x06, 0x00, 0x08, 0x00, 0x04, 0x00, 0x06, 0x00, 0x00, 0x00,
  0x00, 0x00, 0x80, 0x3f, 0x01, 0x00, 0x00, 0x00, 0x00, 0x00, 0x00, 0x00,
  0x01, 0x00, 0x00, 0x00, 0x0a, 0x00, 0x00, 0x00, 0x52, 0xff, 0xff, 0xff,
  0x00, 0x00, 0x00, 0x08, 0x18, 0x00, 0x00, 0x00, 0x0c, 0x00, 0x00, 0x00,
  0x04, 0x00, 0x00, 0x00, 0xd0, 0xfa, 0xff, 0xff, 0x01, 0x00, 0x00, 0x00,
  0x0a, 0x00, 0x00, 0x00, 0x03, 0x00, 0x00, 0x00, 0x07, 0x00, 0x00, 0x00,
  0x0b, 0x00, 0x00, 0x00, 0x0c, 0x00, 0x00, 0x00, 0xae, 0xff, 0xff, 0xff,
  0x02, 0x00, 0x00, 0x00, 0x10, 0x00, 0x00, 0x00, 0x04, 0x00, 0x00, 0x00,
  0x01, 0x00, 0x00, 0x00, 0x07, 0x00, 0x00, 0x00, 0x01, 0x00, 0x00, 0x00,
  0x06, 0x00, 0x00, 0x00, 0xa2, 0xff, 0xff, 0xff, 0x00, 0x00, 0x00, 0x08,
  0x18, 0x00, 0x00, 0x00, 0x0c, 0x00, 0x00, 0x00, 0x04, 0x00, 0x00, 0x00,
  0x20, 0xfb, 0xff, 0xff, 0x01, 0x00, 0x00, 0x00, 0x06, 0x00, 0x00, 0x00,
  0x03, 0x00, 0x00, 0x00, 0x03, 0x00, 0x00, 0x00, 0x08, 0x00, 0x00, 0x00,
  0x09, 0x00, 0x00, 0x00, 0x00, 0x00, 0x0a, 0x00, 0x10, 0x00, 0x04, 0x00,
  0x08, 0x00, 0x0c, 0x00, 0x0a, 0x00, 0x00, 0x00, 0x02, 0x00, 0x00, 0x00,
  0x10, 0x00, 0x00, 0x00, 0x04, 0x00, 0x00, 0x00, 0x01, 0x00, 0x00, 0x00,
  0x03, 0x00, 0x00, 0x00, 0x01, 0x00, 0x00, 0x00, 0x02, 0x00, 0x00, 0x00,
  0x00, 0x00, 0x0e, 0x00, 0x14, 0x00, 0x00, 0x00, 0x08, 0x00, 0x0c, 0x00,
  0x07, 0x00, 0x10, 0x00, 0x0e, 0x00, 0x00, 0x00, 0x00, 0x00, 0x00, 0x08,
  0x18, 0x00, 0x00, 0x00, 0x0c, 0x00, 0x00, 0x00, 0x04, 0x00, 0x00, 0x00,
  0x8c, 0xfb, 0xff, 0xff, 0x01, 0x00, 0x00, 0x00, 0x02, 0x00, 0x00, 0x00,
  0x03, 0x00, 0x00, 0x00, 0x01, 0x00, 0x00, 0x00, 0x04, 0x00, 0x00, 0x00,
  0x05, 0x00, 0x00, 0x00, 0x01, 0x00, 0x00, 0x00, 0x00, 0x00, 0x00, 0x00,
  0x01, 0x00, 0x00, 0x00, 0x01, 0x00, 0x00, 0x00, 0x0d, 0x00, 0x00, 0x00,
  0x30, 0x04, 0x00, 0x00, 0xc4, 0x03, 0x00, 0x00, 0x78, 0x03, 0x00, 0x00,
  0x30, 0x03, 0x00, 0x00, 0xcc, 0x02, 0x00, 0x00, 0x80, 0x02, 0x00, 0x00,
  0x34, 0x02, 0x00, 0x00, 0xec, 0x01, 0x00, 0x00, 0x5c, 0x01, 0x00, 0x00,
  0x00, 0x01, 0x00, 0x00, 0xb4, 0x00, 0x00, 0x00, 0x50, 0x00, 0x00, 0x00,
  0x04, 0x00, 0x00, 0x00, 0x12, 0xfc, 0xff, 0xff, 0x3c, 0x00, 0x00, 0x00,
  0x01, 0x00, 0x00, 0x00, 0x0c, 0x00, 0x00, 0x00, 0x04, 0x00, 0x00, 0x00,
  0x04, 0xfc, 0xff, 0xff, 0x21, 0x00, 0x00, 0x00, 0x73, 0x65, 0x71, 0x75,
  0x65, 0x6e, 0x74, 0x69, 0x61, 0x6c, 0x5f, 0x38, 0x2f, 0x64, 0x65, 0x6e,
  0x73, 0x65, 0x5f, 0x32, 0x36, 0x2f, 0x4d, 0x61, 0x74, 0x4d, 0x75, 0x6c,
  0x5f, 0x62, 0x69, 0x61, 0x73, 0x00, 0x00, 0x00, 0x01, 0x00, 0x00, 0x00,
  0x04, 0x00, 0x00, 0x00, 0x5a, 0xfc, 0xff, 0xff, 0x50, 0x00, 0x00, 0x00,
  0x03, 0x00, 0x00, 0x00, 0x0c, 0x00, 0x00, 0x00, 0x04, 0x00, 0x00, 0x00,
  0x4c, 0xfc, 0xff, 0xff, 0x35, 0x00, 0x00, 0x00, 0x73, 0x65, 0x71, 0x75,
  0x65, 0x6e, 0x74, 0x69, 0x61, 0x6c, 0x5f, 0x38, 0x2f, 0x64, 0x65, 0x6e,
  0x73, 0x65, 0x5f, 0x32, 0x36, 0x2f, 0x4d, 0x61, 0x74, 0x4d, 0x75, 0x6c,
  0x2f, 0x52, 0x65, 0x61, 0x64, 0x56, 0x61, 0x72, 0x69, 0x61, 0x62, 0x6c,
  0x65, 0x4f, 0x70, 0x2f, 0x74, 0x72, 0x61, 0x6e, 0x73, 0x70, 0x6f, 0x73,
  0x65, 0x00, 0x00, 0x00, 0x02, 0x00, 0x00, 0x00, 0x04, 0x00, 0x00, 0x00,
  0x20, 0x00, 0x00, 0x00, 0xba, 0xfc, 0xff, 0xff, 0x38, 0x00, 0x00, 0x00,
  0x07, 0x00, 0x00, 0x00, 0x0c, 0x00, 0x00, 0x00, 0x04, 0x00, 0x00, 0x00,
  0xac, 0xfc, 0xff, 0xff, 0x1d, 0x00, 0x00, 0x00, 0x73, 0x65, 0x71, 0x75,
  0x65, 0x6e, 0x74, 0x69, 0x61, 0x6c, 0x5f, 0x38, 0x2f, 0x64, 0x65, 0x6e,
  0x73, 0x65, 0x5f, 0x32, 0x36, 0x2f, 0x42, 0x69, 0x61, 0x73, 0x41, 0x64,
  0x64, 0x00, 0x00, 0x00, 0x02, 0x00, 0x00, 0x00, 0x01, 0x00, 0x00, 0x00,
  0x04, 0x00, 0x00, 0x00, 0x02, 0xfd, 0xff, 0xff, 0x3c, 0x00, 0x00, 0x00,
  0x08, 0x00, 0x00, 0x00, 0x0c, 0x00, 0x00, 0x00, 0x04, 0x00, 0x00, 0x00,
  0xf4, 0xfc, 0xff, 0xff, 0x21, 0x00, 0x00, 0x00, 0x73, 0x65, 0x71, 0x75,
  0x65, 0x6e, 0x74, 0x69, 0x61, 0x6c, 0x5f, 0x38, 0x2f, 0x64, 0x65, 0x6e,
  0x73, 0x65, 0x5f, 0x32, 0x35, 0x2f, 0x4d, 0x61, 0x74, 0x4d, 0x75, 0x6c,
  0x5f, 0x62, 0x69, 0x61, 0x73, 0x00, 0x00, 0x00, 0x01, 0x00, 0x00, 0x00,
  0x20, 0x00, 0x00, 0x00, 0x00, 0x00, 0x0e, 0x00, 0x18, 0x00, 0x08, 0x00,
  0x07, 0x00, 0x0c, 0x00, 0x10, 0x00, 0x14, 0x00, 0x0e, 0x00, 0x00, 0x00,
  0x00, 0x00, 0x00, 0x09, 0x78, 0x00, 0x00, 0x00, 0x04, 0x00, 0x00, 0x00,
  0x34, 0x00, 0x00, 0x00, 0x10, 0x00, 0x00, 0x00, 0x0c, 0x00, 0x0c, 0x00,
  0x00, 0x00, 0x00, 0x00, 0x04, 0x00, 0x08, 0x00, 0x0c, 0x00, 0x00, 0x00,
  0x14, 0x00, 0x00, 0x00, 0x04, 0x00, 0x00, 0x00, 0x01, 0x00, 0x00, 0x00,
  0x00, 0x00, 0x00, 0x00, 0x00, 0x00, 0x00, 0x00, 0x01, 0x00, 0x00, 0x00,
  0x52, 0x2e, 0xb1, 0x3c, 0x35, 0x00, 0x00, 0x00, 0x73, 0x65, 0x71, 0x75,
  0x65, 0x6e, 0x74, 0x69, 0x61, 0x6c, 0x5f, 0x38, 0x2f, 0x64, 0x65, 0x6e,
  0x73, 0x65, 0x5f, 0x32, 0x35, 0x2f, 0x4d, 0x61, 0x74, 0x4d, 0x75, 0x6c,
  0x2f, 0x52, 0x65, 0x61, 0x64, 0x56, 0x61, 0x72, 0x69, 0x61, 0x62, 0x6c,
  0x65, 0x4f, 0x70, 0x2f, 0x74, 0x72, 0x61, 0x6e, 0x73, 0x70, 0x6f, 0x73,
  0x65, 0x00, 0x00, 0x00, 0x02, 0x00, 0x00, 0x00, 0x20, 0x00, 0x00, 0x00,
  0x40, 0x00, 0x00, 0x00, 0xe6, 0xfd, 0xff, 0xff, 0x34, 0x00, 0x00, 0x00,
  0x0d, 0x00, 0x00, 0x00, 0x0c, 0x00, 0x00, 0x00, 0x04, 0x00, 0x00, 0x00,
  0xd8, 0xfd, 0xff, 0xff, 0x19, 0x00, 0x00, 0x00, 0x73, 0x65, 0x71, 0x75,
  0x65, 0x6e, 0x74, 0x69, 0x61, 0x6c, 0x5f, 0x38, 0x2f, 0x64, 0x65, 0x6e,
  0x73, 0x65, 0x5f, 0x32, 0x35, 0x2f, 0x45, 0x6c, 0x75, 0x00, 0x00, 0x00,
  0x02, 0x00, 0x00, 0x00, 0x01, 0x00, 0x00, 0x00, 0x20, 0x00, 0x00, 0x00,
  0x2a, 0xfe, 0xff, 0xff, 0x38, 0x00, 0x00, 0x00, 0x09, 0x00, 0x00, 0x00,
  0x0c, 0x00, 0x00, 0x00, 0x04, 0x00, 0x00, 0x00, 0x1c, 0xfe, 0xff, 0xff,
  0x1d, 0x00, 0x00, 0x00, 0x73, 0x65, 0x71, 0x75, 0x65, 0x6e, 0x74, 0x69,
  0x61, 0x6c, 0x5f, 0x38, 0x2f, 0x64, 0x65, 0x6e, 0x73, 0x65, 0x5f, 0x32,
  0x35, 0x2f, 0x42, 0x69, 0x61, 0x73, 0x41, 0x64, 0x64, 0x00, 0x00, 0x00,
  0x02, 0x00, 0x00, 0x00, 0x01, 0x00, 0x00, 0x00, 0x20, 0x00, 0x00, 0x00,
  0x72, 0xfe, 0xff, 0xff, 0x3c, 0x00, 0x00, 0x00, 0x02, 0x00, 0x00, 0x00,
  0x0c, 0x00, 0x00, 0x00, 0x04, 0x00, 0x00, 0x00, 0x64, 0xfe, 0xff, 0xff,
  0x21, 0x00, 0x00, 0x00, 0x73, 0x65, 0x71, 0x75, 0x65, 0x6e, 0x74, 0x69,
  0x61, 0x6c, 0x5f, 0x38, 0x2f, 0x64, 0x65, 0x6e, 0x73, 0x65, 0x5f, 0x32,
  0x34, 0x2f, 0x4d, 0x61, 0x74, 0x4d, 0x75, 0x6c, 0x5f, 0x62, 0x69, 0x61,
  0x73, 0x00, 0x00, 0x00, 0x01, 0x00, 0x00, 0x00, 0x40, 0x00, 0x00, 0x00,
  0xba, 0xfe, 0xff, 0xff, 0x50, 0x00, 0x00, 0x00, 0x05, 0x00, 0x00, 0x00,
  0x0c, 0x00, 0x00, 0x00, 0x04, 0x00, 0x00, 0x00, 0xac, 0xfe, 0xff, 0xff,
  0x35, 0x00, 0x00, 0x00, 0x73, 0x65, 0x71, 0x75, 0x65, 0x6e, 0x74, 0x69,
  0x61, 0x6c, 0x5f, 0x38, 0x2f, 0x64, 0x65, 0x6e, 0x73, 0x65, 0x5f, 0x32,
  0x34, 0x2f, 0x4d, 0x61, 0x74, 0x4d, 0x75, 0x6c, 0x2f, 0x52, 0x65, 0x61,
  0x64, 0x56, 0x61, 0x72, 0x69, 0x61, 0x62, 0x6c, 0x65, 0x4f, 0x70, 0x2f,
  0x74, 0x72, 0x61, 0x6e, 0x73, 0x70, 0x6f, 0x73, 0x65, 0x00, 0x00, 0x00,
  0x02, 0x00, 0x00, 0x00, 0x40, 0x00, 0x00, 0x00, 0x02, 0x00, 0x00, 0x00,
  0x1a, 0xff, 0xff, 0xff, 0x34, 0x00, 0x00, 0x00, 0x0c, 0x00, 0x00, 0x00,
  0x0c, 0x00, 0x00, 0x00, 0x04, 0x00, 0x00, 0x00, 0x0c, 0xff, 0xff, 0xff,
  0x19, 0x00, 0x00, 0x00, 0x73, 0x65, 0x71, 0x75, 0x65, 0x6e, 0x74, 0x69,
  0x61, 0x6c, 0x5f, 0x38, 0x2f, 0x64, 0x65, 0x6e, 0x73, 0x65, 0x5f, 0x32,
  0x34, 0x2f, 0x45, 0x6c, 0x75, 0x00, 0x00, 0x00, 0x02, 0x00, 0x00, 0x00,
  0x01, 0x00, 0x00, 0x00, 0x40, 0x00, 0x00, 0x00, 0x5e, 0xff, 0xff, 0xff,
  0x38, 0x00, 0x00, 0x00, 0x0a, 0x00, 0x00, 0x00, 0x0c, 0x00, 0x00, 0x00,
  0x04, 0x00, 0x00, 0x00, 0x50, 0xff, 0xff, 0xff, 0x1d, 0x00, 0x00, 0x00,
  0x73, 0x65, 0x71, 0x75, 0x65, 0x6e, 0x74, 0x69, 0x61, 0x6c, 0x5f, 0x38,
  0x2f, 0x64, 0x65, 0x6e, 0x73, 0x65, 0x5f, 0x32, 0x34, 0x2f, 0x42, 0x69,
  0x61, 0x73, 0x41, 0x64, 0x64, 0x00, 0x00, 0x00, 0x02, 0x00, 0x00, 0x00,
  0x01, 0x00, 0x00, 0x00, 0x40, 0x00, 0x00, 0x00, 0xa6, 0xff, 0xff, 0xff,
  0x48, 0x00, 0x00, 0x00, 0x0b, 0x00, 0x00, 0x00, 0x2c, 0x00, 0x00, 0x00,
  0x0c, 0x00, 0x00, 0x00, 0x08, 0x00, 0x0c, 0x00, 0x04, 0x00, 0x08, 0x00,
  0x08, 0x00, 0x00, 0x00, 0x10, 0x00, 0x00, 0x00, 0x04, 0x00, 0x00, 0x00,
  0x01, 0x00, 0x00, 0x00, 0x00, 0x00, 0x7f, 0x43, 0x01, 0x00, 0x00, 0x00,
  0x00, 0x00, 0x00, 0x00, 0x0e, 0x00, 0x00, 0x00, 0x64, 0x65, 0x6e, 0x73,
  0x65, 0x5f, 0x32, 0x34, 0x5f, 0x69, 0x6e, 0x70, 0x75, 0x74, 0x00, 0x00,
  0x02, 0x00, 0x00, 0x00, 0x01, 0x00, 0x00, 0x00, 0x02, 0x00, 0x00, 0x00,
  0x00, 0x00, 0x0e, 0x00, 0x14, 0x00, 0x04, 0x00, 0x00, 0x00, 0x08, 0x00,
  0x0c, 0x00, 0x10, 0x00, 0x0e, 0x00, 0x00, 0x00, 0x28, 0x00, 0x00, 0x00,
  0x06, 0x00, 0x00, 0x00, 0x10, 0x00, 0x00, 0x00, 0x08, 0x00, 0x00, 0x00,
  0x04, 0x00, 0x04, 0x00, 0x04, 0x00, 0x00, 0x00, 0x08, 0x00, 0x00, 0x00,
  0x49, 0x64, 0x65, 0x6e, 0x74, 0x69, 0x74, 0x79, 0x00, 0x00, 0x00, 0x00,
  0x02, 0x00, 0x00, 0x00, 0x01, 0x00, 0x00, 0x00, 0x04, 0x00, 0x00, 0x00,
  0x03, 0x00, 0x00, 0x00, 0x28, 0x00, 0x00, 0x00, 0x14, 0x00, 0x00, 0x00,
  0x04, 0x00, 0x00, 0x00, 0xfa, 0xff, 0xff, 0xff, 0x00, 0x6f, 0x06, 0x00,
  0x06, 0x00, 0x05, 0x00, 0x06, 0x00, 0x00, 0x00, 0x00, 0x19, 0x0a, 0x00,
  0x0c, 0x00, 0x07, 0x00, 0x00, 0x00, 0x08, 0x00, 0x0a, 0x00, 0x00, 0x00,
  0x00, 0x00, 0x00, 0x09, 0x03, 0x00, 0x00, 0x00
};
unsigned int ANN_WeatherModel_Two_Params_tflite_len = 5360;
